unsigned char model_tflite[] = {
  0x1c, 0x00, 0x00, 0x00, 0x54, 0x46, 0x4c, 0x33, 0x14, 0x00, 0x20, 0x00,
  0x1c, 0x00, 0x18, 0x00, 0x14, 0x00, 0x10, 0x00, 0x0c, 0x00, 0x00, 0x00,
  0x08, 0x00, 0x04, 0x00, 0x14, 0x00, 0x00, 0x00, 0x1c, 0x00, 0x00, 0x00,
  0xa4, 0x00, 0x00, 0x00, 0xfc, 0x00, 0x00, 0x00, 0x08, 0x12, 0x00, 0x00,
  0x18, 0x12, 0x00, 0x00, 0x04, 0x19, 0x00, 0x00, 0x03, 0x00, 0x00, 0x00,
  0x01, 0x00, 0x00, 0x00, 0x10, 0x00, 0x00, 0x00, 0x00, 0x00, 0x0a, 0x00,
  0x10, 0x00, 0x0c, 0x00, 0x08, 0x00, 0x04, 0x00, 0x0a, 0x00, 0x00, 0x00,
  0x0c, 0x00, 0x00, 0x00, 0x1c, 0x00, 0x00, 0x00, 0x40, 0x00, 0x00, 0x00,
  0x0f, 0x00, 0x00, 0x00, 0x73, 0x65, 0x72, 0x76, 0x69, 0x6e, 0x67, 0x5f,
  0x64, 0x65, 0x66, 0x61, 0x75, 0x6c, 0x74, 0x00, 0x01, 0x00, 0x00, 0x00,
  0x04, 0x00, 0x00, 0x00, 0x84, 0xff, 0xff, 0xff, 0x0b, 0x00, 0x00, 0x00,
  0x04, 0x00, 0x00, 0x00, 0x0c, 0x00, 0x00, 0x00, 0x64, 0x65, 0x6e, 0x73,
  0x65, 0x5f, 0x44, 0x65, 0x6e, 0x73, 0x65, 0x34, 0x00, 0x00, 0x00, 0x00,
  0x01, 0x00, 0x00, 0x00, 0x04, 0x00, 0x00, 0x00, 0xea, 0xed, 0xff, 0xff,
  0x04, 0x00, 0x00, 0x00, 0x16, 0x00, 0x00, 0x00, 0x66, 0x6c, 0x61, 0x74,
  0x74, 0x65, 0x6e, 0x5f, 0x46, 0x6c, 0x61, 0x74, 0x74, 0x65, 0x6e, 0x31,
  0x5f, 0x69, 0x6e, 0x70, 0x75, 0x74, 0x00, 0x00, 0x02, 0x00, 0x00, 0x00,
  0x34, 0x00, 0x00, 0x00, 0x04, 0x00, 0x00, 0x00, 0xdc, 0xff, 0xff, 0xff,
  0x0e, 0x00, 0x00, 0x00, 0x04, 0x00, 0x00, 0x00, 0x13, 0x00, 0x00, 0x00,
  0x43, 0x4f, 0x4e, 0x56, 0x45, 0x52, 0x53, 0x49, 0x4f, 0x4e, 0x5f, 0x4d,
  0x45, 0x54, 0x41, 0x44, 0x41, 0x54, 0x41, 0x00, 0x08, 0x00, 0x0c, 0x00,
  0x08, 0x00, 0x04, 0x00, 0x08, 0x00, 0x00, 0x00, 0x0d, 0x00, 0x00, 0x00,
  0x04, 0x00, 0x00, 0x00, 0x13, 0x00, 0x00, 0x00, 0x6d, 0x69, 0x6e, 0x5f,
  0x72, 0x75, 0x6e, 0x74, 0x69, 0x6d, 0x65, 0x5f, 0x76, 0x65, 0x72, 0x73,
  0x69, 0x6f, 0x6e, 0x00, 0x0f, 0x00, 0x00, 0x00, 0x08, 0x11, 0x00, 0x00,
  0x00, 0x11, 0x00, 0x00, 0xe8, 0x10, 0x00, 0x00, 0xb8, 0x0d, 0x00, 0x00,
  0x28, 0x0b, 0x00, 0x00, 0xb8, 0x01, 0x00, 0x00, 0xb8, 0x00, 0x00, 0x00,
  0xb0, 0x00, 0x00, 0x00, 0xa8, 0x00, 0x00, 0x00, 0xa0, 0x00, 0x00, 0x00,
  0x98, 0x00, 0x00, 0x00, 0x90, 0x00, 0x00, 0x00, 0x88, 0x00, 0x00, 0x00,
  0x68, 0x00, 0x00, 0x00, 0x04, 0x00, 0x00, 0x00, 0xaa, 0xee, 0xff, 0xff,
  0x04, 0x00, 0x00, 0x00, 0x54, 0x00, 0x00, 0x00, 0x0c, 0x00, 0x00, 0x00,
  0x08, 0x00, 0x0e, 0x00, 0x08, 0x00, 0x04, 0x00, 0x08, 0x00, 0x00, 0x00,
  0x10, 0x00, 0x00, 0x00, 0x24, 0x00, 0x00, 0x00, 0x00, 0x00, 0x06, 0x00,
  0x08, 0x00, 0x04, 0x00, 0x06, 0x00, 0x00, 0x00, 0x04, 0x00, 0x00, 0x00,
  0x00, 0x00, 0x00, 0x00, 0x00, 0x00, 0x0a, 0x00, 0x10, 0x00, 0x0c, 0x00,
  0x08, 0x00, 0x04, 0x00, 0x0a, 0x00, 0x00, 0x00, 0x02, 0x00, 0x00, 0x00,
  0x02, 0x00, 0x00, 0x00, 0x04, 0x00, 0x00, 0x00, 0x06, 0x00, 0x00, 0x00,
  0x32, 0x2e, 0x31, 0x34, 0x2e, 0x30, 0x00, 0x00, 0x0a, 0xef, 0xff, 0xff,
  0x04, 0x00, 0x00, 0x00, 0x10, 0x00, 0x00, 0x00, 0x31, 0x2e, 0x35, 0x2e,
  0x30, 0x00, 0x00, 0x00, 0x00, 0x00, 0x00, 0x00, 0x00, 0x00, 0x00, 0x00,
  0xf0, 0xe8, 0xff, 0xff, 0xf4, 0xe8, 0xff, 0xff, 0xf8, 0xe8, 0xff, 0xff,
  0xfc, 0xe8, 0xff, 0xff, 0x00, 0xe9, 0xff, 0xff, 0x04, 0xe9, 0xff, 0xff,
  0x3e, 0xef, 0xff, 0xff, 0x04, 0x00, 0x00, 0x00, 0xf0, 0x00, 0x00, 0x00,
  0x49, 0xb9, 0x05, 0x3c, 0x83, 0x10, 0xf7, 0x3c, 0x73, 0x35, 0x86, 0xbe,
  0xf7, 0x08, 0x88, 0xbc, 0x53, 0x21, 0x70, 0x3e, 0x16, 0x6c, 0x90, 0xbe,
  0xef, 0x25, 0x75, 0x3e, 0x48, 0xe9, 0x13, 0x3c, 0xbe, 0x9c, 0xa3, 0x3e,
  0x8b, 0x91, 0x82, 0x3e, 0xee, 0x58, 0x80, 0x3d, 0xef, 0xa1, 0xad, 0x3e,
  0x59, 0xff, 0xb7, 0x3e, 0x47, 0x61, 0x42, 0xbe, 0x5c, 0x27, 0x20, 0x3e,
  0x27, 0xeb, 0x51, 0xbe, 0x6b, 0x9c, 0x58, 0xbe, 0x05, 0x7a, 0xa3, 0xbd,
  0x6b, 0x00, 0x73, 0x3e, 0x87, 0xba, 0xae, 0x3d, 0x0f, 0x2a, 0xad, 0xbe,
  0xc8, 0x08, 0x53, 0x3e, 0xd2, 0xa3, 0x09, 0xbe, 0xc5, 0xca, 0x46, 0xbe,
  0x51, 0x91, 0x0f, 0x3e, 0x64, 0x52, 0x7e, 0x3e, 0xe9, 0x50, 0xa7, 0xbb,
  0x5e, 0xc7, 0x87, 0x3e, 0xb4, 0xb2, 0x84, 0x3e, 0xb2, 0xaf, 0x74, 0xbe,
  0x87, 0x9e, 0xa9, 0xbe, 0x07, 0x4b, 0x0f, 0xbd, 0x7b, 0x64, 0x83, 0x3e,
  0x6c, 0xb4, 0x39, 0xbe, 0x74, 0x38, 0xe2, 0x3e, 0x1d, 0x87, 0x1a, 0x3e,
  0xd6, 0x12, 0xee, 0x3d, 0xea, 0x96, 0x56, 0x3d, 0x6b, 0xa6, 0x1d, 0xbe,
  0x46, 0xd3, 0xaf, 0x3d, 0xfb, 0xc3, 0xf7, 0x3d, 0x10, 0xe1, 0xa9, 0x3b,
  0xd8, 0xf0, 0x2e, 0x3e, 0x0a, 0xf5, 0xc1, 0x3b, 0x1e, 0xf7, 0xe0, 0xbd,
  0xf9, 0xee, 0xa0, 0x3e, 0xe6, 0x6f, 0x22, 0x3d, 0x5c, 0x6a, 0x36, 0xbe,
  0x79, 0x3d, 0x78, 0xbe, 0x23, 0x68, 0xfa, 0xbe, 0xf9, 0x5e, 0x0e, 0x3e,
  0x89, 0x5c, 0xb5, 0xbd, 0xf4, 0xf0, 0xac, 0x3e, 0x88, 0x91, 0x60, 0x3d,
  0x82, 0x07, 0x57, 0xbe, 0x54, 0x53, 0x7a, 0x3e, 0xee, 0xd6, 0xe5, 0xbc,
  0xce, 0x71, 0xa5, 0xbe, 0x09, 0x8b, 0xa5, 0xbd, 0x7a, 0xad, 0xb8, 0x3d,
  0x3a, 0xf0, 0xff, 0xff, 0x04, 0x00, 0x00, 0x00, 0x60, 0x09, 0x00, 0x00,
  0xff, 0xc2, 0xa0, 0xbe, 0xb0, 0x3e, 0x77, 0xbe, 0x11, 0x41, 0xa8, 0xbd,
  0x34, 0x9d, 0xa4, 0x3d, 0xfa, 0x6d, 0xa9, 0x3e, 0x08, 0xc6, 0xc8, 0xbd,
  0x0f, 0x68, 0x61, 0xbe, 0xb8, 0xa5, 0xbd, 0x3e, 0x92, 0xb0, 0x4a, 0xbe,
  0x0d, 0x6a, 0xcb, 0x3e, 0xe5, 0xe3, 0x8a, 0xbe, 0x74, 0x7e, 0x18, 0xbe,
  0x49, 0xb0, 0x6b, 0xbe, 0x7c, 0xf5, 0x00, 0xbe, 0xf3, 0x3f, 0x5e, 0xbd,
  0x10, 0x89, 0x5a, 0xbe, 0xce, 0xda, 0xab, 0xbe, 0xb6, 0x39, 0x80, 0xbe,
  0x6f, 0x00, 0xf7, 0xbc, 0x62, 0x62, 0x4c, 0xbe, 0x79, 0x98, 0x2a, 0x3e,
  0x63, 0xaa, 0x93, 0x3e, 0xda, 0x2e, 0x59, 0xbe, 0xc3, 0x6b, 0x87, 0x3e,
  0xf6, 0xac, 0xcc, 0xbd, 0x0b, 0xf4, 0x49, 0x3d, 0xfa, 0x75, 0xb6, 0xbe,
  0x44, 0xbc, 0x15, 0xbe, 0x1b, 0x67, 0x77, 0xbe, 0xad, 0xfa, 0x17, 0xbd,
  0xfe, 0x0b, 0x1f, 0xbb, 0x94, 0xed, 0x54, 0xbe, 0xf5, 0xcf, 0x1f, 0xbe,
  0xa5, 0xdb, 0x8d, 0x3e, 0x46, 0xbc, 0xc7, 0x3d, 0xf4, 0x86, 0x37, 0xbd,
  0xe9, 0xbc, 0xb3, 0x3e, 0xf8, 0xb2, 0x5c, 0xbd, 0xa1, 0xef, 0x4e, 0x3e,
  0x0d, 0x7e, 0xd0, 0xbd, 0xdf, 0xe9, 0x4c, 0xbe, 0x59, 0xc9, 0xa4, 0xbd,
  0xf1, 0x40, 0x86, 0x3d, 0x6a, 0x34, 0x18, 0xbd, 0xcb, 0x79, 0xcb, 0xbd,
  0x7a, 0xf9, 0xa6, 0xbc, 0x48, 0x3d, 0x2f, 0x3d, 0x34, 0x8c, 0xaa, 0xbd,
  0x09, 0x56, 0xad, 0x3d, 0xe5, 0xfc, 0x8a, 0xbd, 0xe4, 0x74, 0xa9, 0x3e,
  0x7b, 0xe5, 0xf7, 0xbd, 0x3c, 0xbd, 0x06, 0x3e, 0x4a, 0xaa, 0x0e, 0xbe,
  0x77, 0x2e, 0xaf, 0x3e, 0x54, 0x95, 0x42, 0x3e, 0x93, 0x70, 0xc0, 0x3e,
  0xb7, 0x5f, 0xcf, 0xbc, 0x79, 0xaa, 0x83, 0x3d, 0xec, 0xe4, 0xea, 0x3d,
  0xf2, 0xf5, 0x2a, 0x3e, 0xac, 0x4d, 0x18, 0x3d, 0x16, 0xc8, 0x1c, 0xbe,
  0xd4, 0x1b, 0x85, 0x3e, 0x7b, 0x36, 0x40, 0xbe, 0x89, 0x61, 0xe9, 0xbd,
  0x23, 0x68, 0xed, 0x3d, 0xf6, 0x84, 0xd0, 0xbb, 0xfb, 0x97, 0x46, 0x3e,
  0x4e, 0x94, 0xb8, 0xbd, 0xa1, 0x6f, 0xb8, 0xbd, 0xa8, 0x24, 0xd0, 0xbd,
  0x89, 0x20, 0x36, 0x3e, 0xc8, 0x0e, 0x41, 0xbd, 0x9c, 0xdf, 0x9c, 0x3d,
  0x62, 0x6c, 0x43, 0xbe, 0x88, 0xd4, 0x8b, 0x3e, 0xf0, 0x64, 0x52, 0x3e,
  0x45, 0x7c, 0x9f, 0xbe, 0xad, 0xd0, 0x72, 0x3e, 0x7a, 0x02, 0x50, 0xbe,
  0xc5, 0x9a, 0x94, 0xbd, 0x8b, 0x4e, 0x86, 0xbe, 0x42, 0x05, 0x22, 0xbd,
  0xcc, 0x04, 0x83, 0x3e, 0x34, 0x5d, 0xa8, 0x3c, 0xe6, 0xcb, 0xae, 0xbd,
  0xc0, 0xca, 0xc6, 0x3d, 0x93, 0x71, 0x75, 0xbe, 0x35, 0xba, 0xed, 0xbd,
  0xd6, 0x4c, 0xc6, 0x3e, 0x07, 0xbb, 0x52, 0xbe, 0xb4, 0xed, 0xd7, 0x3c,
  0xcb, 0x0e, 0xe1, 0x3d, 0x83, 0x99, 0x96, 0xbe, 0x58, 0x06, 0x9a, 0xbd,
  0xe3, 0x29, 0x33, 0x3c, 0x0b, 0x1f, 0xc3, 0xbe, 0x0c, 0x84, 0xbd, 0x3d,
  0xcf, 0x54, 0xf0, 0x3d, 0x9f, 0x68, 0xea, 0xbd, 0x06, 0x99, 0xc8, 0x3d,
  0x34, 0x21, 0x2c, 0xbd, 0xaa, 0x09, 0x61, 0x3c, 0x5f, 0x2e, 0xbc, 0x3e,
  0x41, 0x3f, 0x26, 0xbe, 0x76, 0xb0, 0x9c, 0xbe, 0x57, 0x6d, 0x9a, 0x3d,
  0xaa, 0x2c, 0x0e, 0x3c, 0x70, 0x42, 0x8a, 0xbd, 0x47, 0x2e, 0x69, 0xbe,
  0x01, 0x2f, 0x67, 0xbd, 0x56, 0xc2, 0x98, 0x3d, 0x85, 0xb4, 0x85, 0x3e,
  0xf1, 0xc7, 0x20, 0x3e, 0xa7, 0xd1, 0x89, 0x3e, 0xc0, 0x69, 0x32, 0xbe,
  0x11, 0x21, 0xfc, 0x3d, 0x6e, 0xe5, 0xff, 0xbd, 0x9b, 0x61, 0x17, 0xbe,
  0xd4, 0x05, 0xa8, 0x3d, 0x91, 0x98, 0x95, 0x3e, 0x9b, 0x0a, 0x4f, 0x3a,
  0xdc, 0x5e, 0x73, 0xbe, 0x5b, 0x23, 0xcc, 0x3e, 0xe9, 0xd9, 0xbb, 0x3e,
  0xfe, 0x98, 0x86, 0x3d, 0x91, 0xab, 0xaf, 0xbe, 0xaf, 0xbc, 0x84, 0xbd,
  0x71, 0xbe, 0x1b, 0x3e, 0x7f, 0x17, 0xb8, 0xbe, 0x2b, 0xf9, 0x98, 0xbe,
  0xc4, 0x49, 0x05, 0xbe, 0xd3, 0x4a, 0x4e, 0xbe, 0x14, 0x33, 0x38, 0x3c,
  0xff, 0xa4, 0xac, 0x3e, 0x02, 0xf4, 0x13, 0x3e, 0x9d, 0x15, 0xf2, 0xbd,
  0x3f, 0xf7, 0x29, 0xbd, 0x2f, 0xf1, 0xe9, 0x3c, 0x56, 0x13, 0x9f, 0x3d,
  0x48, 0x2d, 0x01, 0x3e, 0x27, 0xa5, 0x36, 0xbe, 0x64, 0x71, 0x76, 0x3b,
  0x1d, 0x8b, 0x1f, 0x3e, 0xef, 0x0e, 0x9a, 0xbe, 0x55, 0x86, 0x5d, 0x3e,
  0x92, 0x32, 0x84, 0xbe, 0xfa, 0x0d, 0xa5, 0x3b, 0xee, 0x5c, 0x76, 0xbe,
  0x99, 0x2f, 0xed, 0xbd, 0x6b, 0x41, 0xab, 0x3c, 0xc0, 0xfc, 0x0c, 0xbe,
  0x40, 0x62, 0xa5, 0xbd, 0x37, 0x44, 0x26, 0x3c, 0xe2, 0x8d, 0x9e, 0xbd,
  0x54, 0xe6, 0xc5, 0xbc, 0xe5, 0x0a, 0xbf, 0xbd, 0xfa, 0x6c, 0x96, 0xbe,
  0x25, 0xc9, 0x76, 0xbd, 0xb7, 0xe6, 0x6e, 0xbe, 0x35, 0x94, 0xac, 0xbc,
  0xe6, 0xad, 0xc0, 0xbc, 0xa6, 0xb6, 0x53, 0xbe, 0xa9, 0x56, 0x43, 0xbe,
  0xc6, 0x2c, 0x81, 0x3c, 0xc2, 0xa1, 0x92, 0x3b, 0x40, 0x6a, 0x9b, 0x3e,
  0x96, 0x29, 0x97, 0xbe, 0x51, 0x2c, 0x34, 0x3e, 0xd2, 0xc2, 0xed, 0xbd,
  0x07, 0xa2, 0x2d, 0x3e, 0xad, 0xc5, 0x58, 0xbe, 0xeb, 0x06, 0xab, 0xba,
  0x41, 0xe9, 0x20, 0xbc, 0x27, 0x9c, 0xcf, 0xbd, 0xcf, 0x75, 0xa7, 0xbd,
  0xe1, 0x20, 0x9e, 0xba, 0xcd, 0x89, 0xde, 0xbd, 0x4c, 0x06, 0x11, 0xbe,
  0xfe, 0x57, 0x12, 0xbe, 0xfb, 0x0c, 0xb3, 0x3e, 0x7d, 0xfa, 0x12, 0xbc,
  0x8e, 0x8c, 0x50, 0x3e, 0xde, 0xf5, 0x36, 0xbe, 0x7f, 0xf7, 0xd5, 0x3d,
  0xef, 0xaa, 0x1b, 0x3e, 0x24, 0x74, 0xf8, 0xbd, 0x36, 0x0c, 0xc7, 0xbd,
  0xba, 0xff, 0xed, 0xbd, 0xa7, 0xc6, 0x8e, 0xbd, 0x19, 0xe0, 0x8f, 0xbe,
  0xf0, 0xc3, 0xdf, 0xbd, 0x9a, 0x51, 0x80, 0x3e, 0x13, 0x12, 0x0d, 0x3d,
  0x16, 0x61, 0x2c, 0x3e, 0xf7, 0xae, 0xa9, 0x3d, 0xb0, 0xb7, 0xd4, 0xbc,
  0x9a, 0x50, 0x9a, 0x3d, 0xcc, 0xfb, 0xcf, 0x3d, 0x78, 0x5e, 0xcf, 0xbd,
  0xb5, 0x68, 0x8f, 0xbe, 0xeb, 0x4e, 0x13, 0xbe, 0x08, 0x44, 0xa5, 0x3e,
  0xc4, 0xc7, 0x52, 0x3e, 0xb6, 0x52, 0xa3, 0xbe, 0x21, 0x1f, 0x9d, 0xbe,
  0x13, 0x6a, 0xf4, 0xbd, 0x1a, 0xd6, 0x59, 0xbb, 0xfc, 0x29, 0x6e, 0xbe,
  0xb2, 0x7d, 0x01, 0xbe, 0x1c, 0x68, 0xfc, 0xbc, 0x0c, 0xd7, 0x28, 0xbe,
  0x01, 0x27, 0x83, 0xbe, 0x52, 0x54, 0x24, 0x3c, 0x4a, 0x6e, 0x4f, 0xbd,
  0x1e, 0x75, 0x2f, 0xbe, 0x0f, 0x91, 0x29, 0x3e, 0xac, 0x88, 0xc7, 0x3e,
  0x0d, 0xac, 0xb8, 0xbd, 0xe3, 0x86, 0x81, 0x3e, 0x7a, 0x8f, 0x94, 0xbd,
  0x15, 0x70, 0x11, 0xbe, 0x87, 0xd9, 0xe5, 0x3d, 0xf7, 0x7d, 0x82, 0x3e,
  0x89, 0x1c, 0xc7, 0xbc, 0x10, 0x46, 0x34, 0x3e, 0x76, 0x19, 0xf3, 0x3d,
  0x11, 0x71, 0x4a, 0x3e, 0x01, 0x58, 0xa4, 0x3c, 0xe8, 0x3d, 0x6f, 0xbd,
  0x9b, 0xc6, 0xf8, 0x3d, 0x2d, 0x57, 0xaa, 0xbe, 0x2e, 0x66, 0xba, 0x3d,
  0x7b, 0x25, 0xe1, 0x3c, 0x6f, 0x0f, 0x87, 0x3b, 0x68, 0xa3, 0x28, 0xbd,
  0x20, 0x02, 0xd0, 0x3d, 0x68, 0xde, 0x81, 0xbd, 0x9b, 0xd0, 0xdd, 0xbd,
  0x67, 0xf3, 0xd0, 0x3b, 0x20, 0xd4, 0x5d, 0x3d, 0xd6, 0x2e, 0x11, 0xbe,
  0xbf, 0x2e, 0x2a, 0xbe, 0xc7, 0x12, 0x24, 0xbe, 0xa1, 0xc2, 0xf7, 0xbd,
  0x21, 0x6a, 0x7a, 0x3e, 0xfd, 0xfb, 0x90, 0x3e, 0x9d, 0x7d, 0x1c, 0xbe,
  0x84, 0xdd, 0x72, 0xbe, 0x46, 0xfc, 0xd2, 0x3d, 0xe7, 0x57, 0x72, 0xbd,
  0x7f, 0x1a, 0xee, 0xbd, 0x8f, 0x62, 0x67, 0x3d, 0xde, 0x42, 0x2b, 0xbe,
  0x5f, 0x14, 0xff, 0xbd, 0x9e, 0x00, 0xa2, 0x3e, 0xb1, 0xc9, 0x81, 0xbc,
  0x28, 0x02, 0xf5, 0xbd, 0x93, 0xd6, 0xb7, 0xbd, 0xbe, 0x2f, 0xba, 0xbd,
  0xa4, 0x4c, 0x8d, 0xbe, 0x1a, 0x08, 0x5a, 0x3e, 0xea, 0x53, 0x3f, 0xbe,
  0xfd, 0x45, 0x8c, 0xbe, 0xb8, 0x76, 0x03, 0x3c, 0xf7, 0xc1, 0x9e, 0x3e,
  0x20, 0x64, 0x1b, 0x3e, 0x79, 0x04, 0x9b, 0xbe, 0xff, 0x34, 0x1d, 0x3d,
  0x99, 0xef, 0x2d, 0xbe, 0xba, 0x3f, 0x44, 0x3e, 0xe3, 0x16, 0xad, 0xba,
  0x89, 0x0e, 0x06, 0x3e, 0xfd, 0x09, 0xf7, 0x3d, 0x0a, 0x5c, 0xcc, 0xbe,
  0x28, 0x0a, 0x1a, 0xbe, 0x80, 0xe9, 0x9d, 0x3e, 0xee, 0x25, 0x61, 0x3e,
  0xc6, 0xa8, 0xac, 0xbd, 0x60, 0x16, 0x55, 0xbe, 0xc8, 0x7f, 0xa4, 0x3e,
  0x17, 0xb0, 0x5f, 0x3e, 0xa4, 0xfe, 0x33, 0x3d, 0x33, 0x29, 0x64, 0xbe,
  0x78, 0x62, 0xac, 0x3e, 0xe3, 0x78, 0x20, 0xbd, 0xb4, 0xfb, 0x99, 0x3e,
  0xd1, 0x26, 0x82, 0xbd, 0x86, 0xfb, 0xa5, 0xbc, 0xbc, 0x32, 0x79, 0xbe,
  0x5a, 0x16, 0xad, 0x3d, 0xc0, 0xa6, 0xb8, 0x3d, 0xb5, 0x36, 0x32, 0xbe,
  0x7f, 0xf1, 0x13, 0xbe, 0xa3, 0x4c, 0x80, 0x3c, 0x39, 0x0c, 0x49, 0x3e,
  0x1d, 0x80, 0x36, 0xbd, 0xb3, 0x20, 0x4a, 0xbd, 0x31, 0xc5, 0xd0, 0x3c,
  0xa9, 0xaa, 0x44, 0x3d, 0x81, 0xb0, 0xa2, 0xbc, 0x46, 0x94, 0x2b, 0xbe,
  0xf3, 0xf8, 0x40, 0xbd, 0x18, 0x7c, 0x34, 0xbc, 0x8f, 0x6f, 0x9f, 0xbe,
  0x09, 0x07, 0xb4, 0x3e, 0x0b, 0x1b, 0x63, 0x3e, 0x45, 0x63, 0xa7, 0xbd,
  0xb8, 0xbd, 0x43, 0x3e, 0x66, 0x89, 0x1c, 0x3d, 0xf7, 0x82, 0x47, 0xbe,
  0xc9, 0x0b, 0x41, 0x3e, 0xf9, 0x99, 0xe3, 0xbd, 0xd0, 0x81, 0x37, 0xbe,
  0x11, 0x62, 0x2d, 0x3d, 0x13, 0x34, 0x85, 0xbd, 0x14, 0xb8, 0x4f, 0xbe,
  0x02, 0xe5, 0x89, 0xbe, 0x95, 0x0c, 0x01, 0x3e, 0xd8, 0xe9, 0x81, 0x3d,
  0xd9, 0xa0, 0x99, 0xbe, 0x7c, 0xd0, 0x46, 0xbd, 0x43, 0x37, 0x7c, 0xbe,
  0xa9, 0x9e, 0x92, 0xbd, 0x3f, 0x4d, 0x5b, 0xbe, 0xef, 0xba, 0xb8, 0x3d,
  0xf5, 0xf5, 0x51, 0x3e, 0x21, 0x90, 0xa0, 0x3d, 0x01, 0x9b, 0xb6, 0x3c,
  0xf7, 0x9e, 0x31, 0xbe, 0xa7, 0xa6, 0x11, 0x3e, 0x76, 0xd9, 0x0c, 0xbe,
  0x90, 0xc2, 0x5e, 0x3d, 0x30, 0x07, 0x5a, 0xbe, 0x04, 0xcc, 0xbf, 0x3b,
  0x1e, 0xa2, 0x29, 0xbd, 0x54, 0x42, 0xfa, 0xbd, 0xe6, 0xb0, 0x1f, 0x3d,
  0xed, 0xd2, 0x26, 0xbd, 0x0b, 0x5d, 0x24, 0xbe, 0x7b, 0xc7, 0x83, 0x3d,
  0x3d, 0xa3, 0x36, 0xbd, 0x81, 0x79, 0x20, 0x3e, 0x60, 0xe5, 0x80, 0x3d,
  0x6a, 0x1c, 0x69, 0xbe, 0x42, 0xaf, 0x03, 0x3d, 0xde, 0x72, 0xb5, 0xbd,
  0x90, 0x79, 0xe6, 0xbd, 0x9a, 0x34, 0xa8, 0xbe, 0x01, 0x7b, 0xaf, 0x3d,
  0x6b, 0xba, 0x98, 0xbc, 0xc8, 0xc1, 0x3d, 0x3d, 0x14, 0x1a, 0x92, 0xbd,
  0x2c, 0x22, 0x06, 0xbd, 0xf8, 0x3d, 0x14, 0x3d, 0xd4, 0x19, 0xcf, 0xbd,
  0xb6, 0x9c, 0x33, 0x3d, 0x51, 0x8a, 0x33, 0x3e, 0x81, 0xb9, 0xd1, 0x3d,
  0x43, 0x87, 0x1f, 0x3e, 0xec, 0xe8, 0x4f, 0xbc, 0xca, 0x8c, 0x6d, 0xbe,
  0xfc, 0x34, 0x68, 0xbd, 0x70, 0x66, 0x7d, 0xbe, 0x82, 0xd7, 0xdf, 0x3d,
  0x22, 0xc8, 0x9a, 0xbd, 0x62, 0x2e, 0x4f, 0xbe, 0x77, 0x9d, 0x02, 0xbd,
  0x89, 0x75, 0x8c, 0xbc, 0xe3, 0x2b, 0x7c, 0xbe, 0x09, 0xb6, 0x0c, 0x3c,
  0xbc, 0xff, 0xec, 0xbd, 0xfc, 0x2f, 0x84, 0xbe, 0x5f, 0x8e, 0x93, 0xbd,
  0xec, 0xfd, 0x73, 0x3e, 0xcf, 0x3d, 0x80, 0xbe, 0x96, 0x6f, 0xec, 0xbd,
  0x5d, 0x3d, 0x1c, 0x3d, 0xab, 0x27, 0x30, 0x3e, 0xab, 0x9b, 0x52, 0x3d,
  0x3a, 0x7d, 0x20, 0xbe, 0x59, 0x48, 0xe5, 0x3d, 0x0b, 0x54, 0x2d, 0x3e,
  0xee, 0x28, 0x70, 0xbd, 0xa3, 0xb7, 0x64, 0xbe, 0xd5, 0x15, 0x92, 0xbb,
  0xd5, 0x96, 0x98, 0xbe, 0xd0, 0x43, 0x2b, 0xbd, 0xb2, 0x4f, 0x9d, 0xbd,
  0xfa, 0x56, 0xc9, 0xbe, 0xf0, 0xdc, 0x65, 0x3e, 0xb9, 0x9b, 0x87, 0xbd,
  0x33, 0x28, 0x1a, 0xbe, 0x7c, 0xc5, 0x12, 0x3d, 0xde, 0xa8, 0xc9, 0xbd,
  0x96, 0xdf, 0x30, 0x3d, 0x22, 0x46, 0xed, 0xbd, 0x25, 0x4f, 0x44, 0xbe,
  0x56, 0x92, 0xcd, 0x3d, 0xa9, 0x6c, 0x7b, 0x3e, 0xfc, 0x04, 0x97, 0x3d,
  0x73, 0x0f, 0x5e, 0x3e, 0x0f, 0x7f, 0x01, 0xbd, 0xcf, 0xc7, 0x04, 0x3e,
  0xc8, 0xb7, 0x8a, 0x3d, 0x2f, 0x2f, 0x4b, 0x3e, 0x28, 0xe9, 0xaa, 0xbd,
  0x05, 0x79, 0x5c, 0x3d, 0x72, 0xbe, 0x0a, 0x3e, 0x44, 0x81, 0x1a, 0x3e,
  0x82, 0x15, 0x5b, 0xbe, 0xbd, 0xd2, 0xc9, 0x3e, 0xa0, 0x31, 0x99, 0x3e,
  0xeb, 0xf8, 0xee, 0x3d, 0x93, 0xd4, 0xc5, 0x3c, 0x37, 0xcc, 0x9a, 0xbd,
  0x03, 0xc0, 0x16, 0xbe, 0x72, 0x89, 0x1e, 0xbe, 0xb9, 0x83, 0x66, 0x3e,
  0x78, 0x48, 0x64, 0xbd, 0xc7, 0x91, 0x86, 0xbe, 0x5e, 0xf2, 0x7b, 0x3e,
  0xef, 0x45, 0xef, 0xbd, 0xea, 0xd2, 0x5a, 0x3e, 0x03, 0x81, 0x5b, 0xbe,
  0xfa, 0xcc, 0x8d, 0xbe, 0xcc, 0x4a, 0x31, 0x3e, 0xb2, 0xbf, 0xea, 0x3c,
  0xa3, 0xda, 0x6e, 0xbd, 0xdf, 0x64, 0x97, 0xbd, 0xa3, 0x62, 0xda, 0xbd,
  0x1f, 0x68, 0x94, 0xbd, 0xd0, 0xed, 0x57, 0xbd, 0x34, 0x90, 0xc1, 0xbd,
  0xe4, 0x4e, 0xef, 0xbd, 0x4d, 0x7d, 0xc3, 0x3e, 0x13, 0x0b, 0xc9, 0x3e,
  0x92, 0x90, 0x69, 0xbe, 0xdb, 0xa9, 0x77, 0xbc, 0x6b, 0x0d, 0x98, 0x3e,
  0x3f, 0x8a, 0x93, 0xbb, 0x67, 0x17, 0x77, 0x3e, 0xb0, 0x7c, 0xc2, 0xbd,
  0xef, 0xab, 0x81, 0xbd, 0xe0, 0xd0, 0x2f, 0x3e, 0x10, 0x92, 0x4a, 0xbd,
  0x6e, 0x65, 0x8f, 0xbe, 0x9b, 0x47, 0x2a, 0x3e, 0x69, 0x77, 0x7d, 0x3e,
  0x17, 0x23, 0x40, 0x3e, 0x7d, 0x4c, 0x3e, 0xbe, 0xc2, 0xa0, 0xb7, 0x3d,
  0x40, 0x1c, 0x06, 0x3e, 0xd4, 0xaf, 0x0a, 0xbd, 0xaf, 0xdc, 0x6a, 0x3d,
  0x45, 0x98, 0x73, 0xbe, 0xc2, 0xc9, 0xcf, 0xbd, 0xef, 0xf7, 0xb0, 0xbd,
  0x7d, 0x62, 0xc9, 0x3e, 0x8f, 0x3f, 0xf3, 0xbc, 0x78, 0x33, 0x20, 0x3e,
  0xa4, 0x99, 0xe0, 0xbb, 0xf8, 0xc8, 0x87, 0x3d, 0x7c, 0x9c, 0xa1, 0xbe,
  0xee, 0x4b, 0x44, 0xbe, 0x66, 0x43, 0x0c, 0xbb, 0x39, 0x3a, 0x99, 0xbc,
  0x9d, 0x58, 0x0a, 0xbe, 0xcd, 0x9b, 0x68, 0xbc, 0x6c, 0xfa, 0x67, 0x3e,
  0x23, 0xbc, 0xa9, 0x3e, 0xbf, 0x43, 0x3f, 0x3e, 0x6b, 0xcf, 0xc6, 0x3e,
  0x94, 0xdf, 0x90, 0xbe, 0xd7, 0x4c, 0x84, 0x3e, 0xd1, 0x72, 0x31, 0x3d,
  0x37, 0xfe, 0x75, 0xbd, 0xa6, 0x35, 0x8a, 0xbe, 0x28, 0x32, 0xf4, 0x3d,
  0x9c, 0x9c, 0x3b, 0xbe, 0x4d, 0x09, 0xef, 0xbc, 0xd0, 0xcc, 0x61, 0xbe,
  0xbd, 0xa9, 0x56, 0xbd, 0x57, 0xef, 0x6a, 0xbe, 0x7a, 0x5e, 0x3e, 0xbe,
  0x2b, 0x47, 0x80, 0xbe, 0xa8, 0x2a, 0xd6, 0x3d, 0x9b, 0xcc, 0x17, 0xbe,
  0xdd, 0x2d, 0x72, 0x3e, 0x2e, 0x4a, 0x22, 0x3e, 0x70, 0xa3, 0x1f, 0xbe,
  0x4e, 0xf5, 0xaf, 0xbd, 0x34, 0xe8, 0x71, 0xbe, 0x64, 0xb5, 0xb5, 0x3e,
  0x95, 0x56, 0xae, 0x3e, 0x74, 0x6a, 0x41, 0x3d, 0xeb, 0x77, 0x47, 0x3e,
  0x4b, 0xfe, 0xb9, 0x3e, 0x3d, 0x27, 0x2e, 0xbe, 0x43, 0x5e, 0xc1, 0xbc,
  0xbe, 0xc5, 0x5e, 0x3d, 0xba, 0xc5, 0x7c, 0xbc, 0x95, 0xf5, 0x28, 0xbd,
  0xec, 0x07, 0x23, 0x3e, 0x97, 0x25, 0x11, 0xbc, 0xbf, 0x33, 0xa6, 0xbc,
  0x76, 0x25, 0xd7, 0xbd, 0xff, 0x56, 0xc3, 0xbc, 0xe7, 0x1d, 0xcb, 0x3e,
  0xb4, 0x19, 0x39, 0xbe, 0xc7, 0xcf, 0xa2, 0x3e, 0x39, 0xf9, 0xa3, 0x3c,
  0x18, 0xc8, 0x61, 0xbe, 0xed, 0x69, 0x6f, 0xbe, 0x20, 0x02, 0xc6, 0xbe,
  0x42, 0x44, 0x06, 0xbe, 0x4a, 0x9a, 0x02, 0xbe, 0x41, 0xd3, 0x86, 0x3d,
  0xb5, 0x82, 0xc3, 0xbd, 0x82, 0x7c, 0x51, 0x3b, 0xc9, 0xfb, 0x17, 0x3d,
  0x10, 0x44, 0x7c, 0xbe, 0xa2, 0x6b, 0x08, 0x3d, 0xb2, 0xc9, 0xb0, 0xbd,
  0xf3, 0xee, 0xcc, 0x3d, 0x3b, 0x83, 0x70, 0xbc, 0x49, 0x45, 0x89, 0x3e,
  0x8d, 0x7d, 0xd8, 0x3d, 0x46, 0xb1, 0xdb, 0x3d, 0xb5, 0xc8, 0x06, 0x3e,
  0x6c, 0xf1, 0xbf, 0xbd, 0xb6, 0x20, 0x88, 0x3c, 0x30, 0x00, 0x0f, 0xbe,
  0xed, 0x08, 0x63, 0x3e, 0x7a, 0xc4, 0x73, 0xbe, 0x6c, 0xc2, 0x85, 0xbd,
  0x93, 0x78, 0x92, 0xbe, 0xa0, 0x29, 0x0b, 0xbe, 0xd6, 0x38, 0x9b, 0x3d,
  0xc1, 0xc2, 0x5b, 0xbe, 0x07, 0xca, 0xd7, 0x3d, 0xb2, 0x4d, 0x89, 0x3e,
  0x8a, 0x80, 0x41, 0xbe, 0xca, 0x5c, 0x28, 0x3e, 0x37, 0x31, 0x96, 0xbe,
  0x33, 0xcf, 0x44, 0x3d, 0x2c, 0xe3, 0xbc, 0xbd, 0x70, 0x24, 0x86, 0x3e,
  0xc2, 0x73, 0x1b, 0xbe, 0xd2, 0x58, 0xaa, 0x3e, 0xde, 0x58, 0xb5, 0xbe,
  0xa4, 0x86, 0x29, 0xbe, 0xbc, 0x84, 0x04, 0x3d, 0x2a, 0xf7, 0x8f, 0xbd,
  0x2f, 0xf3, 0x92, 0xbd, 0xd9, 0x27, 0xa8, 0xbe, 0x81, 0xe3, 0xc2, 0xbd,
  0xc3, 0xa8, 0xd0, 0x3d, 0xe6, 0x45, 0x99, 0xbe, 0xf2, 0x31, 0x56, 0xbd,
  0x99, 0xf0, 0x55, 0x3e, 0x34, 0xfe, 0x3b, 0xbe, 0xc6, 0x18, 0x18, 0xbd,
  0x0e, 0x47, 0xb1, 0xbe, 0x54, 0x6e, 0x33, 0x3d, 0xd1, 0xc6, 0x49, 0x3e,
  0x93, 0x1f, 0x3f, 0x3e, 0x34, 0xec, 0x82, 0xbe, 0x21, 0x32, 0x10, 0xbd,
  0xb1, 0xef, 0xe9, 0xbd, 0x9d, 0x01, 0x40, 0xbe, 0xcf, 0xd9, 0x25, 0x3e,
  0x27, 0xb5, 0xc6, 0xbe, 0x73, 0xa5, 0xde, 0xbd, 0x19, 0x2d, 0xc5, 0xbd,
  0x7a, 0x1f, 0xe4, 0x3c, 0x40, 0x42, 0xc5, 0xbe, 0xa0, 0x7d, 0x77, 0xbe,
  0x7c, 0xe2, 0x0e, 0x3c, 0x20, 0xa5, 0xb2, 0xbd, 0x49, 0xdd, 0xff, 0xbd,
  0x43, 0x5f, 0x55, 0xbe, 0x6b, 0x43, 0x51, 0x3e, 0x08, 0x9a, 0x97, 0x3e,
  0xbd, 0x8b, 0x17, 0x3d, 0x98, 0xc3, 0x2d, 0x3e, 0x92, 0x96, 0x9e, 0x3d,
  0x7b, 0x2a, 0x5b, 0xbe, 0xd5, 0x09, 0x1a, 0xbe, 0xbe, 0x44, 0xfe, 0xbc,
  0xff, 0xf2, 0x9a, 0x3d, 0xa0, 0xb9, 0x67, 0xbe, 0x81, 0x83, 0xa7, 0x3d,
  0xe1, 0xaa, 0x09, 0xbe, 0x9c, 0x34, 0x9c, 0xbe, 0xbc, 0xc8, 0xf3, 0xbd,
  0x00, 0xd2, 0x2c, 0x3d, 0x3b, 0x20, 0xc4, 0xbc, 0x50, 0x1b, 0xcb, 0x3d,
  0xa6, 0xf9, 0xff, 0xff, 0x04, 0x00, 0x00, 0x00, 0x80, 0x02, 0x00, 0x00,
  0x3a, 0x15, 0xaf, 0xbc, 0x56, 0xd9, 0xb6, 0xbe, 0xcc, 0x49, 0x0f, 0x3d,
  0x43, 0x9b, 0xd8, 0xbd, 0x8e, 0xe8, 0x31, 0x3e, 0x46, 0x95, 0xb8, 0x3d,
  0xbe, 0xbc, 0x19, 0xbe, 0x38, 0x0c, 0x42, 0xbd, 0x8b, 0x5e, 0x42, 0x3e,
  0xdb, 0xa0, 0xdf, 0x3e, 0xaa, 0xd5, 0x81, 0x3b, 0x25, 0x27, 0xbf, 0xbe,
  0xb2, 0x54, 0xbe, 0x3e, 0xf5, 0x42, 0x71, 0xbe, 0x5e, 0xf0, 0x3c, 0xbe,
  0x20, 0xff, 0x46, 0xbe, 0xc9, 0x0a, 0x5d, 0xbe, 0x56, 0xbd, 0x03, 0xbe,
  0xf2, 0xb7, 0xd3, 0xbe, 0x37, 0x36, 0x1c, 0xbe, 0x69, 0xff, 0x1c, 0xbe,
  0xc3, 0x58, 0x8d, 0xbe, 0x88, 0x22, 0x42, 0xbd, 0xbc, 0x78, 0x98, 0xbd,
  0x7a, 0x6a, 0xa7, 0x3c, 0xb0, 0xaf, 0xf9, 0xbe, 0xcd, 0x7b, 0x01, 0x3c,
  0xef, 0xfa, 0x7b, 0x3e, 0x3b, 0xa2, 0xaf, 0xbe, 0x56, 0x04, 0x1c, 0xbe,
  0x2b, 0x19, 0x79, 0x3e, 0x11, 0x68, 0x80, 0x3e, 0xe7, 0x41, 0xa6, 0x3e,
  0xb1, 0xda, 0x18, 0x3d, 0xb0, 0x6b, 0xe0, 0xbe, 0xe9, 0x7a, 0xbb, 0xbe,
  0x77, 0x6c, 0xf7, 0x3e, 0x4d, 0xa3, 0xff, 0x3e, 0x3c, 0x38, 0xff, 0xbe,
  0x8a, 0xc4, 0xab, 0xbd, 0x72, 0x3f, 0xb3, 0xbd, 0xdf, 0xd4, 0xa1, 0x3c,
  0x17, 0x57, 0x8b, 0x3e, 0x9a, 0x94, 0xc1, 0x3c, 0xb1, 0x7c, 0x33, 0x3e,
  0x4e, 0x44, 0xd1, 0x3d, 0x3f, 0x0b, 0x8e, 0xbd, 0x43, 0x53, 0xea, 0xbe,
  0x3a, 0xde, 0x5f, 0x3e, 0x7b, 0xd2, 0x8f, 0x3d, 0xb7, 0x23, 0x6a, 0xbe,
  0xbe, 0xf3, 0x71, 0x3e, 0x15, 0xb7, 0x17, 0xbe, 0xa1, 0x85, 0xca, 0x3d,
  0xb6, 0xb6, 0xb6, 0x3c, 0x6b, 0x9e, 0xee, 0xbe, 0x76, 0x0d, 0xaa, 0x3e,
  0xf5, 0xa4, 0xee, 0xbe, 0xea, 0xfa, 0xab, 0xb9, 0x2b, 0x69, 0x0b, 0xbe,
  0x9c, 0x5b, 0x22, 0xbe, 0xbb, 0x31, 0x6f, 0x3d, 0xf1, 0x92, 0x9c, 0x3d,
  0x7e, 0x26, 0x17, 0xbd, 0xef, 0x71, 0xb4, 0x3d, 0xf0, 0x09, 0x5a, 0xbe,
  0x1b, 0xe8, 0xd9, 0x3d, 0x61, 0x8f, 0x6c, 0x3e, 0x29, 0x1a, 0x9e, 0xbe,
  0x23, 0xfe, 0x57, 0xbc, 0x32, 0x02, 0xac, 0xbe, 0x3c, 0x10, 0x95, 0x3e,
  0xd1, 0xb0, 0x4b, 0xbe, 0x79, 0x53, 0xd3, 0x3c, 0xfe, 0xc5, 0xed, 0x3d,
  0x74, 0x8b, 0xa2, 0x3d, 0x88, 0x20, 0x05, 0xbe, 0xc1, 0xd8, 0x07, 0xbe,
  0x19, 0xc5, 0x96, 0x3e, 0xb3, 0x08, 0x23, 0xbe, 0xd8, 0xde, 0xc8, 0x3e,
  0xd0, 0x96, 0xe2, 0x3e, 0x1b, 0x6c, 0x54, 0x3c, 0x53, 0x16, 0x98, 0x3c,
  0x85, 0x86, 0x44, 0x3c, 0x8c, 0xc7, 0x97, 0xbe, 0x4f, 0xc7, 0x1d, 0xbe,
  0x5a, 0xf9, 0xac, 0x3c, 0x50, 0x4b, 0x0f, 0xbe, 0x20, 0x4d, 0xd5, 0xbe,
  0x3e, 0x94, 0xf3, 0x3e, 0x21, 0x86, 0xf0, 0x3e, 0x38, 0x03, 0x9d, 0xbe,
  0x93, 0xac, 0x05, 0x3f, 0xca, 0xa0, 0xa2, 0xbd, 0x24, 0xfd, 0xee, 0xbc,
  0x85, 0x49, 0x8a, 0x3e, 0xb5, 0xfe, 0xf0, 0x3d, 0x45, 0x3a, 0x25, 0xbe,
  0x5d, 0x8e, 0x08, 0x3e, 0xc6, 0x2a, 0x89, 0x3e, 0x62, 0x1d, 0x43, 0x3d,
  0x6a, 0x48, 0x32, 0x3d, 0xd2, 0xd6, 0x97, 0x3d, 0x3a, 0x07, 0x84, 0xbe,
  0x4c, 0x96, 0xd9, 0x3e, 0xab, 0x33, 0x0c, 0x3e, 0x80, 0xdd, 0x13, 0x3d,
  0x14, 0xd0, 0xd9, 0xbd, 0x06, 0xad, 0x2d, 0xbe, 0x77, 0x6a, 0x2f, 0x3c,
  0xbe, 0xac, 0xa9, 0x3e, 0xa8, 0xc4, 0x92, 0x3e, 0x49, 0x62, 0x0a, 0x3e,
  0xd6, 0x40, 0x36, 0xbe, 0xfd, 0xdb, 0xa7, 0xbe, 0xd2, 0x2f, 0x27, 0xbe,
  0x7d, 0x4b, 0x7e, 0xbe, 0xb9, 0xa5, 0xc3, 0xbd, 0xbc, 0x08, 0x59, 0xbe,
  0x13, 0x0a, 0xb6, 0xbe, 0x19, 0x24, 0x97, 0xbd, 0x80, 0xfb, 0x8d, 0x3d,
  0x7a, 0x5d, 0x27, 0xbe, 0xb2, 0x1f, 0xba, 0x3e, 0xf6, 0x6c, 0xc0, 0x3e,
  0x62, 0x3e, 0x5a, 0x3b, 0x08, 0x8a, 0x03, 0xbe, 0xd6, 0x33, 0x17, 0xbe,
  0xce, 0x6b, 0xc7, 0x3e, 0x2b, 0x1f, 0x91, 0xbe, 0x91, 0xa2, 0xf9, 0x3e,
  0x4e, 0x0a, 0x99, 0x3e, 0x9f, 0x9e, 0x46, 0xbe, 0x1b, 0x90, 0x54, 0xbe,
  0x28, 0xc2, 0xbc, 0x3b, 0xda, 0xe5, 0xcc, 0x3e, 0xc8, 0x28, 0xce, 0xbc,
  0x53, 0x64, 0x11, 0xbe, 0xd0, 0x81, 0x86, 0x3d, 0xaf, 0xf2, 0x1f, 0x3e,
  0x19, 0xf8, 0x9d, 0x3e, 0x2c, 0xd9, 0x2e, 0xbd, 0x3b, 0x55, 0x23, 0xbe,
  0xcd, 0x2a, 0x2a, 0x3e, 0x29, 0x7d, 0xe5, 0xbe, 0x4e, 0x14, 0x5a, 0xbc,
  0xf1, 0x66, 0x17, 0x3e, 0x2c, 0xba, 0x8e, 0x3c, 0xe7, 0x75, 0x78, 0x3e,
  0xbe, 0x3f, 0xaf, 0xbd, 0xe7, 0xa4, 0xc3, 0x3e, 0x5d, 0x5d, 0x53, 0xbe,
  0xd1, 0x6a, 0x91, 0x3d, 0x59, 0x8a, 0x96, 0xbd, 0x12, 0x74, 0xfc, 0xbe,
  0x55, 0xee, 0x33, 0xbe, 0x1a, 0x34, 0x23, 0xbe, 0xd4, 0x7b, 0xa9, 0x3e,
  0x82, 0xf0, 0x38, 0x3e, 0x32, 0xfc, 0xff, 0xff, 0x04, 0x00, 0x00, 0x00,
  0x20, 0x03, 0x00, 0x00, 0x96, 0x2a, 0x01, 0x3e, 0xa8, 0xbc, 0xdc, 0xbc,
  0x28, 0xe4, 0xfa, 0x3e, 0x8b, 0x9e, 0x84, 0xbe, 0x29, 0xae, 0xf8, 0x3d,
  0x01, 0x02, 0xb2, 0xbd, 0x52, 0x33, 0xb6, 0xbd, 0xfa, 0xdf, 0xa6, 0xbd,
  0x1f, 0x58, 0x2a, 0x3d, 0x85, 0x96, 0x09, 0x3c, 0x92, 0xcb, 0x3c, 0xbe,
  0xdc, 0x4e, 0x2f, 0x3d, 0x55, 0xe9, 0x92, 0xbe, 0xb8, 0xaa, 0x4a, 0x3d,
  0xfd, 0x46, 0x1f, 0x3e, 0xc0, 0x21, 0xc6, 0x3d, 0x4a, 0x4f, 0x59, 0xbe,
  0x76, 0x35, 0x84, 0x3d, 0xe2, 0xd8, 0x49, 0xbe, 0xa7, 0x73, 0x6f, 0xbd,
  0x9d, 0xfd, 0x19, 0xbe, 0xe3, 0x08, 0x75, 0xbe, 0x23, 0xfb, 0x07, 0x3e,
  0xd8, 0x07, 0xb7, 0xbe, 0x98, 0x83, 0xad, 0x3d, 0xd9, 0xeb, 0x65, 0x3e,
  0xca, 0xef, 0xf5, 0x3c, 0x5b, 0xa5, 0x81, 0x3e, 0x6f, 0x55, 0x4a, 0xbc,
  0x8b, 0xa5, 0x0a, 0xbe, 0xc5, 0x6f, 0x10, 0xbe, 0x2e, 0xe0, 0x53, 0xbe,
  0x3b, 0x34, 0x14, 0x3e, 0xc2, 0xdd, 0x20, 0x3e, 0x2a, 0xcc, 0xe3, 0xbd,
  0x59, 0xdc, 0xfb, 0xbb, 0x1f, 0xe8, 0x2b, 0xbe, 0x3b, 0x96, 0xb7, 0xbd,
  0xee, 0x12, 0xe2, 0xbe, 0xbb, 0xbd, 0x42, 0xbd, 0xfa, 0x6e, 0x21, 0xbe,
  0xb6, 0xdb, 0x00, 0xbd, 0xf5, 0x97, 0x35, 0xbe, 0x94, 0x87, 0xa0, 0x3e,
  0x9f, 0xfc, 0x82, 0xbe, 0xf1, 0xf9, 0x8f, 0x3c, 0x2c, 0xc0, 0x12, 0x3e,
  0x1b, 0x26, 0x62, 0x3d, 0xea, 0xad, 0xc5, 0x3d, 0x8e, 0xc7, 0xfa, 0x3d,
  0xce, 0x31, 0x39, 0xbd, 0x4f, 0xbd, 0x06, 0x3e, 0x61, 0xe5, 0xaf, 0x3e,
  0xc5, 0xc3, 0x23, 0x3e, 0x4a, 0x43, 0x53, 0x3e, 0x74, 0x78, 0x5e, 0xbe,
  0x02, 0x09, 0x51, 0x3d, 0x87, 0x24, 0x93, 0xbd, 0x57, 0xbf, 0x89, 0x3e,
  0x71, 0xff, 0x76, 0x3e, 0x46, 0x1e, 0x93, 0x3e, 0x01, 0x90, 0x6c, 0xbd,
  0xf6, 0x52, 0xa6, 0xbe, 0xf6, 0x5c, 0x0c, 0xbe, 0xf5, 0xef, 0xb0, 0xbe,
  0xf5, 0x6b, 0x8b, 0xbd, 0xd1, 0xfd, 0x31, 0xbd, 0xca, 0xcb, 0x8b, 0xbd,
  0x4b, 0x72, 0xae, 0xbe, 0x19, 0x26, 0x98, 0x3d, 0x7d, 0xfb, 0x42, 0x3e,
  0x04, 0x89, 0x6c, 0xbe, 0xf2, 0x6f, 0x3b, 0xbe, 0xe5, 0xec, 0x85, 0xbe,
  0x3c, 0xd1, 0xcf, 0xbe, 0x3e, 0xce, 0xc6, 0x3d, 0xeb, 0x22, 0xb6, 0xbd,
  0x8e, 0xe8, 0x73, 0xbe, 0x99, 0x65, 0xbe, 0x3c, 0x20, 0x6f, 0x88, 0xbe,
  0x1b, 0xd0, 0x98, 0x3e, 0x00, 0x25, 0xbc, 0xbe, 0xf6, 0x1e, 0xf2, 0xbd,
  0x06, 0x18, 0xbe, 0x3e, 0x01, 0xf4, 0x27, 0x3e, 0x54, 0xc7, 0x97, 0x3e,
  0x03, 0xa8, 0xc6, 0x3d, 0x5e, 0xf7, 0x80, 0xbe, 0x25, 0x39, 0x21, 0x3e,
  0x9d, 0x69, 0x07, 0xbd, 0xa2, 0x00, 0x7b, 0x3e, 0x6f, 0xe0, 0x3a, 0x3e,
  0x17, 0xda, 0x02, 0x3c, 0x38, 0xcf, 0x62, 0x3e, 0x6b, 0x55, 0xf1, 0x3d,
  0x29, 0xda, 0x88, 0xbc, 0xf7, 0x59, 0xbe, 0x3d, 0x2c, 0x38, 0x95, 0xbe,
  0x08, 0x7c, 0x4d, 0x3d, 0xb7, 0xd1, 0x65, 0x3e, 0xcf, 0x10, 0x50, 0x3e,
  0x6e, 0x30, 0x6d, 0xbe, 0xc8, 0x38, 0x83, 0xbe, 0xf4, 0xf2, 0xc7, 0x3e,
  0x7e, 0x2d, 0x25, 0x3e, 0x6a, 0xf8, 0xba, 0x3b, 0x5b, 0x3d, 0x53, 0x3e,
  0x4b, 0x32, 0x57, 0xbe, 0xc3, 0x6e, 0xaf, 0xbe, 0x49, 0xa8, 0x70, 0xbe,
  0xb3, 0x84, 0xb7, 0x3e, 0x1f, 0x29, 0x5c, 0x3d, 0x80, 0x2d, 0xd9, 0xbe,
  0xe3, 0x8e, 0x16, 0x3d, 0xdc, 0x55, 0x4c, 0xbe, 0x7d, 0xc3, 0x9e, 0x3d,
  0xbb, 0x1d, 0x4e, 0xbd, 0x90, 0x4a, 0x8d, 0x3c, 0x0d, 0x8b, 0x19, 0xbe,
  0xcf, 0xae, 0xb6, 0xbe, 0xdf, 0x9b, 0xa1, 0x3e, 0x94, 0xc4, 0x4f, 0xbe,
  0x12, 0x3a, 0x0e, 0x3e, 0x68, 0xba, 0x4c, 0x3e, 0x8a, 0xb7, 0x8d, 0x3c,
  0x5e, 0xe9, 0xd4, 0xbc, 0xf6, 0x14, 0x86, 0xbe, 0x69, 0xc8, 0x41, 0xbe,
  0x0f, 0x92, 0xce, 0x3e, 0x49, 0x73, 0xa8, 0x3d, 0x85, 0xc8, 0x23, 0xbe,
  0xc7, 0xf9, 0xdd, 0x3d, 0x19, 0x21, 0x2c, 0xbd, 0xf7, 0xcd, 0xc6, 0xbd,
  0xda, 0x82, 0x9e, 0xbd, 0x27, 0x5c, 0xcc, 0xbd, 0x28, 0x55, 0x45, 0x3d,
  0x4c, 0x1b, 0x24, 0x3e, 0xf6, 0xfe, 0x6e, 0x3e, 0x1f, 0xce, 0xee, 0x3d,
  0x28, 0x21, 0x93, 0x3d, 0x49, 0x2c, 0xf1, 0xbe, 0x02, 0x15, 0x72, 0xbd,
  0xe7, 0x26, 0x9c, 0xbc, 0xed, 0xfc, 0x47, 0x3e, 0xc4, 0x6c, 0x1a, 0x3e,
  0x17, 0xac, 0xa1, 0xbe, 0x25, 0x65, 0xb5, 0x3e, 0x3b, 0x3b, 0xc4, 0xbb,
  0x93, 0x86, 0xb2, 0xbe, 0x16, 0x7d, 0x0a, 0xbe, 0x12, 0xa2, 0xa2, 0xbd,
  0xaa, 0x26, 0xbd, 0x3e, 0x18, 0x6c, 0x85, 0xbe, 0x20, 0xb0, 0x36, 0x3e,
  0x77, 0x9e, 0x06, 0x3d, 0xa7, 0x9e, 0x9e, 0xbe, 0x29, 0x95, 0x87, 0x3e,
  0x07, 0x43, 0x61, 0x3e, 0x96, 0x65, 0xd7, 0x3e, 0x0d, 0x65, 0x83, 0xbe,
  0x3c, 0x1a, 0xd2, 0x3d, 0x5f, 0x0d, 0x3b, 0x3e, 0xd2, 0x05, 0xeb, 0x3e,
  0xa3, 0x7a, 0x62, 0xbc, 0xf0, 0x44, 0xc4, 0x3d, 0x94, 0xa9, 0x11, 0x3e,
  0x36, 0xa0, 0xdf, 0xbb, 0x66, 0xae, 0x8d, 0x3e, 0xae, 0x3e, 0xd4, 0x3d,
  0xfe, 0xf2, 0x2a, 0xbe, 0x69, 0xb4, 0x1e, 0xbe, 0x95, 0xfa, 0x56, 0xbd,
  0x43, 0xa2, 0x9c, 0x3e, 0xe5, 0x0c, 0x33, 0xbe, 0xe1, 0xb3, 0xed, 0x3b,
  0x5d, 0xd4, 0x51, 0x3e, 0x84, 0x7e, 0xcf, 0x3e, 0xac, 0xc7, 0xe5, 0xbd,
  0x30, 0x6b, 0xbb, 0x3d, 0xba, 0x02, 0xad, 0xbc, 0x64, 0xc5, 0x0a, 0xbd,
  0xb0, 0xcc, 0xb0, 0x3e, 0x5c, 0xbf, 0x17, 0xbe, 0xaa, 0x22, 0x8d, 0x3d,
  0x28, 0x6a, 0xf3, 0x3e, 0x64, 0x70, 0xe7, 0x3d, 0xca, 0x06, 0x2f, 0x3c,
  0x70, 0xdf, 0xa2, 0xbd, 0xc2, 0x1d, 0x00, 0xbe, 0x3c, 0x45, 0x95, 0x3d,
  0x13, 0x2d, 0xbe, 0xba, 0x0a, 0xa1, 0xe9, 0xbd, 0xd4, 0x78, 0xda, 0x3d,
  0x62, 0x49, 0x70, 0xbe, 0xb4, 0xed, 0xa4, 0xbd, 0xe1, 0x19, 0xa5, 0xbe,
  0x0a, 0x35, 0x3a, 0xbc, 0xa0, 0xb7, 0xb6, 0x3d, 0xb4, 0x62, 0x07, 0x3e,
  0x5e, 0xff, 0xff, 0xff, 0x04, 0x00, 0x00, 0x00, 0x08, 0x00, 0x00, 0x00,
  0xff, 0xff, 0xff, 0xff, 0x19, 0x00, 0x00, 0x00, 0x3c, 0xf9, 0xff, 0xff,
  0x40, 0xf9, 0xff, 0xff, 0x0f, 0x00, 0x00, 0x00, 0x4d, 0x4c, 0x49, 0x52,
  0x20, 0x43, 0x6f, 0x6e, 0x76, 0x65, 0x72, 0x74, 0x65, 0x64, 0x2e, 0x00,
  0x01, 0x00, 0x00, 0x00, 0x14, 0x00, 0x00, 0x00, 0x00, 0x00, 0x0e, 0x00,
  0x18, 0x00, 0x14, 0x00, 0x10, 0x00, 0x0c, 0x00, 0x08, 0x00, 0x04, 0x00,
  0x0e, 0x00, 0x00, 0x00, 0x14, 0x00, 0x00, 0x00, 0x1c, 0x00, 0x00, 0x00,
  0x78, 0x01, 0x00, 0x00, 0x7c, 0x01, 0x00, 0x00, 0x80, 0x01, 0x00, 0x00,
  0x04, 0x00, 0x00, 0x00, 0x6d, 0x61, 0x69, 0x6e, 0x00, 0x00, 0x00, 0x00,
  0x06, 0x00, 0x00, 0x00, 0x3c, 0x01, 0x00, 0x00, 0xf8, 0x00, 0x00, 0x00,
  0xb0, 0x00, 0x00, 0x00, 0x78, 0x00, 0x00, 0x00, 0x40, 0x00, 0x00, 0x00,
  0x04, 0x00, 0x00, 0x00, 0x2a, 0xff, 0xff, 0xff, 0x1c, 0x00, 0x00, 0x00,
  0x00, 0x00, 0x00, 0x09, 0x1c, 0x00, 0x00, 0x00, 0x20, 0x00, 0x00, 0x00,
  0x02, 0x00, 0x00, 0x00, 0x00, 0x00, 0x06, 0x00, 0x08, 0x00, 0x04, 0x00,
  0x06, 0x00, 0x00, 0x00, 0x00, 0x00, 0x80, 0x3f, 0x01, 0x00, 0x00, 0x00,
  0x0b, 0x00, 0x00, 0x00, 0x01, 0x00, 0x00, 0x00, 0x0a, 0x00, 0x00, 0x00,
  0x62, 0xff, 0xff, 0xff, 0x14, 0x00, 0x00, 0x00, 0x00, 0x00, 0x00, 0x08,
  0x10, 0x00, 0x00, 0x00, 0x14, 0x00, 0x00, 0x00, 0x01, 0x00, 0x00, 0x00,
  0x00, 0xfa, 0xff, 0xff, 0x01, 0x00, 0x00, 0x00, 0x0a, 0x00, 0x00, 0x00,
  0x03, 0x00, 0x00, 0x00, 0x09, 0x00, 0x00, 0x00, 0x05, 0x00, 0x00, 0x00,
  0xff, 0xff, 0xff, 0xff, 0x96, 0xff, 0xff, 0xff, 0x14, 0x00, 0x00, 0x00,
  0x00, 0x00, 0x00, 0x08, 0x10, 0x00, 0x00, 0x00, 0x14, 0x00, 0x00, 0x00,
  0x01, 0x00, 0x00, 0x00, 0x34, 0xfa, 0xff, 0xff, 0x01, 0x00, 0x00, 0x00,
  0x09, 0x00, 0x00, 0x00, 0x03, 0x00, 0x00, 0x00, 0x08, 0x00, 0x00, 0x00,
  0x04, 0x00, 0x00, 0x00, 0xff, 0xff, 0xff, 0xff, 0xca, 0xff, 0xff, 0xff,
  0x14, 0x00, 0x00, 0x00, 0x00, 0x00, 0x00, 0x08, 0x10, 0x00, 0x00, 0x00,
  0x14, 0x00, 0x00, 0x00, 0x01, 0x00, 0x00, 0x00, 0x68, 0xfa, 0xff, 0xff,
  0x01, 0x00, 0x00, 0x00, 0x08, 0x00, 0x00, 0x00, 0x03, 0x00, 0x00, 0x00,
  0x07, 0x00, 0x00, 0x00, 0x03, 0x00, 0x00, 0x00, 0xff, 0xff, 0xff, 0xff,
  0x00, 0x00, 0x0e, 0x00, 0x18, 0x00, 0x14, 0x00, 0x10, 0x00, 0x0c, 0x00,
  0x0b, 0x00, 0x04, 0x00, 0x0e, 0x00, 0x00, 0x00, 0x14, 0x00, 0x00, 0x00,
  0x00, 0x00, 0x00, 0x08, 0x10, 0x00, 0x00, 0x00, 0x14, 0x00, 0x00, 0x00,
  0x01, 0x00, 0x00, 0x00, 0xac, 0xfa, 0xff, 0xff, 0x01, 0x00, 0x00, 0x00,
  0x07, 0x00, 0x00, 0x00, 0x03, 0x00, 0x00, 0x00, 0x06, 0x00, 0x00, 0x00,
  0x02, 0x00, 0x00, 0x00, 0xff, 0xff, 0xff, 0xff, 0x00, 0x00, 0x0a, 0x00,
  0x0c, 0x00, 0x00, 0x00, 0x08, 0x00, 0x04, 0x00, 0x0a, 0x00, 0x00, 0x00,
  0x08, 0x00, 0x00, 0x00, 0x0c, 0x00, 0x00, 0x00, 0x01, 0x00, 0x00, 0x00,
  0x06, 0x00, 0x00, 0x00, 0x02, 0x00, 0x00, 0x00, 0x00, 0x00, 0x00, 0x00,
  0x01, 0x00, 0x00, 0x00, 0x01, 0x00, 0x00, 0x00, 0x0b, 0x00, 0x00, 0x00,
  0x01, 0x00, 0x00, 0x00, 0x00, 0x00, 0x00, 0x00, 0x0c, 0x00, 0x00, 0x00,
  0xcc, 0x04, 0x00, 0x00, 0x60, 0x04, 0x00, 0x00, 0xf4, 0x03, 0x00, 0x00,
  0x88, 0x03, 0x00, 0x00, 0x34, 0x03, 0x00, 0x00, 0xe0, 0x02, 0x00, 0x00,
  0x78, 0x02, 0x00, 0x00, 0x14, 0x02, 0x00, 0x00, 0x6c, 0x01, 0x00, 0x00,
  0x08, 0x01, 0x00, 0x00, 0x60, 0x00, 0x00, 0x00, 0x04, 0x00, 0x00, 0x00,
  0x7a, 0xfb, 0xff, 0xff, 0x00, 0x00, 0x00, 0x01, 0x14, 0x00, 0x00, 0x00,
  0x1c, 0x00, 0x00, 0x00, 0x1c, 0x00, 0x00, 0x00, 0x0c, 0x00, 0x00, 0x00,
  0x34, 0x00, 0x00, 0x00, 0x02, 0x00, 0x00, 0x00, 0xff, 0xff, 0xff, 0xff,
  0x02, 0x00, 0x00, 0x00, 0x60, 0xfb, 0xff, 0xff, 0x19, 0x00, 0x00, 0x00,
  0x53, 0x74, 0x61, 0x74, 0x65, 0x66, 0x75, 0x6c, 0x50, 0x61, 0x72, 0x74,
  0x69, 0x74, 0x69, 0x6f, 0x6e, 0x65, 0x64, 0x43, 0x61, 0x6c, 0x6c, 0x3a,
  0x30, 0x00, 0x00, 0x00, 0x02, 0x00, 0x00, 0x00, 0x01, 0x00, 0x00, 0x00,
  0x02, 0x00, 0x00, 0x00, 0xd2, 0xfb, 0xff, 0xff, 0x00, 0x00, 0x00, 0x01,
  0x14, 0x00, 0x00, 0x00, 0x1c, 0x00, 0x00, 0x00, 0x1c, 0x00, 0x00, 0x00,
  0x0b, 0x00, 0x00, 0x00, 0x80, 0x00, 0x00, 0x00, 0x02, 0x00, 0x00, 0x00,
  0xff, 0xff, 0xff, 0xff, 0x02, 0x00, 0x00, 0x00, 0xb8, 0xfb, 0xff, 0xff,
  0x64, 0x00, 0x00, 0x00, 0x73, 0x65, 0x71, 0x75, 0x65, 0x6e, 0x74, 0x69,
  0x61, 0x6c, 0x5f, 0x31, 0x2f, 0x64, 0x65, 0x6e, 0x73, 0x65, 0x5f, 0x44,
  0x65, 0x6e, 0x73, 0x65, 0x33, 0x2f, 0x42, 0x69, 0x61, 0x73, 0x41, 0x64,
  0x64, 0x3b, 0x73, 0x65, 0x71, 0x75, 0x65, 0x6e, 0x74, 0x69, 0x61, 0x6c,
  0x5f, 0x31, 0x2f, 0x64, 0x65, 0x6e, 0x73, 0x65, 0x5f, 0x44, 0x65, 0x6e,
  0x73, 0x65, 0x34, 0x2f, 0x4d, 0x61, 0x74, 0x4d, 0x75, 0x6c, 0x3b, 0x73,
  0x65, 0x71, 0x75, 0x65, 0x6e, 0x74, 0x69, 0x61, 0x6c, 0x5f, 0x31, 0x2f,
  0x64, 0x65, 0x6e, 0x73, 0x65, 0x5f, 0x44, 0x65, 0x6e, 0x73, 0x65, 0x34,
  0x2f, 0x42, 0x69, 0x61, 0x73, 0x41, 0x64, 0x64, 0x00, 0x00, 0x00, 0x00,
  0x02, 0x00, 0x00, 0x00, 0x01, 0x00, 0x00, 0x00, 0x02, 0x00, 0x00, 0x00,
  0x76, 0xfc, 0xff, 0xff, 0x00, 0x00, 0x00, 0x01, 0x14, 0x00, 0x00, 0x00,
  0x1c, 0x00, 0x00, 0x00, 0x1c, 0x00, 0x00, 0x00, 0x0a, 0x00, 0x00, 0x00,
  0x3c, 0x00, 0x00, 0x00, 0x02, 0x00, 0x00, 0x00, 0xff, 0xff, 0xff, 0xff,
  0x1e, 0x00, 0x00, 0x00, 0x5c, 0xfc, 0xff, 0xff, 0x21, 0x00, 0x00, 0x00,
  0x73, 0x65, 0x71, 0x75, 0x65, 0x6e, 0x74, 0x69, 0x61, 0x6c, 0x5f, 0x31,
  0x2f, 0x64, 0x65, 0x6e, 0x73, 0x65, 0x5f, 0x44, 0x65, 0x6e, 0x73, 0x65,
  0x33, 0x2f, 0x4d, 0x61, 0x74, 0x4d, 0x75, 0x6c, 0x31, 0x00, 0x00, 0x00,
  0x02, 0x00, 0x00, 0x00, 0x01, 0x00, 0x00, 0x00, 0x1e, 0x00, 0x00, 0x00,
  0xd6, 0xfc, 0xff, 0xff, 0x00, 0x00, 0x00, 0x01, 0x14, 0x00, 0x00, 0x00,
  0x1c, 0x00, 0x00, 0x00, 0x1c, 0x00, 0x00, 0x00, 0x09, 0x00, 0x00, 0x00,
  0x80, 0x00, 0x00, 0x00, 0x02, 0x00, 0x00, 0x00, 0xff, 0xff, 0xff, 0xff,
  0x14, 0x00, 0x00, 0x00, 0xbc, 0xfc, 0xff, 0xff, 0x64, 0x00, 0x00, 0x00,
  0x73, 0x65, 0x71, 0x75, 0x65, 0x6e, 0x74, 0x69, 0x61, 0x6c, 0x5f, 0x31,
  0x2f, 0x64, 0x65, 0x6e, 0x73, 0x65, 0x5f, 0x44, 0x65, 0x6e, 0x73, 0x65,
  0x31, 0x2f, 0x42, 0x69, 0x61, 0x73, 0x41, 0x64, 0x64, 0x3b, 0x73, 0x65,
  0x71, 0x75, 0x65, 0x6e, 0x74, 0x69, 0x61, 0x6c, 0x5f, 0x31, 0x2f, 0x64,
  0x65, 0x6e, 0x73, 0x65, 0x5f, 0x44, 0x65, 0x6e, 0x73, 0x65, 0x32, 0x2f,
  0x4d, 0x61, 0x74, 0x4d, 0x75, 0x6c, 0x3b, 0x73, 0x65, 0x71, 0x75, 0x65,
  0x6e, 0x74, 0x69, 0x61, 0x6c, 0x5f, 0x31, 0x2f, 0x64, 0x65, 0x6e, 0x73,
  0x65, 0x5f, 0x44, 0x65, 0x6e, 0x73, 0x65, 0x32, 0x2f, 0x42, 0x69, 0x61,
  0x73, 0x41, 0x64, 0x64, 0x00, 0x00, 0x00, 0x00, 0x02, 0x00, 0x00, 0x00,
  0x01, 0x00, 0x00, 0x00, 0x14, 0x00, 0x00, 0x00, 0x7a, 0xfd, 0xff, 0xff,
  0x00, 0x00, 0x00, 0x01, 0x14, 0x00, 0x00, 0x00, 0x1c, 0x00, 0x00, 0x00,
  0x1c, 0x00, 0x00, 0x00, 0x08, 0x00, 0x00, 0x00, 0x3c, 0x00, 0x00, 0x00,
  0x02, 0x00, 0x00, 0x00, 0xff, 0xff, 0xff, 0xff, 0x08, 0x00, 0x00, 0x00,
  0x60, 0xfd, 0xff, 0xff, 0x21, 0x00, 0x00, 0x00, 0x73, 0x65, 0x71, 0x75,
  0x65, 0x6e, 0x74, 0x69, 0x61, 0x6c, 0x5f, 0x31, 0x2f, 0x64, 0x65, 0x6e,
  0x73, 0x65, 0x5f, 0x44, 0x65, 0x6e, 0x73, 0x65, 0x31, 0x2f, 0x4d, 0x61,
  0x74, 0x4d, 0x75, 0x6c, 0x32, 0x00, 0x00, 0x00, 0x02, 0x00, 0x00, 0x00,
  0x01, 0x00, 0x00, 0x00, 0x08, 0x00, 0x00, 0x00, 0xda, 0xfd, 0xff, 0xff,
  0x00, 0x00, 0x00, 0x01, 0x14, 0x00, 0x00, 0x00, 0x1c, 0x00, 0x00, 0x00,
  0x1c, 0x00, 0x00, 0x00, 0x07, 0x00, 0x00, 0x00, 0x40, 0x00, 0x00, 0x00,
  0x02, 0x00, 0x00, 0x00, 0xff, 0xff, 0xff, 0xff, 0x19, 0x00, 0x00, 0x00,
  0xc0, 0xfd, 0xff, 0xff, 0x25, 0x00, 0x00, 0x00, 0x73, 0x65, 0x71, 0x75,
  0x65, 0x6e, 0x74, 0x69, 0x61, 0x6c, 0x5f, 0x31, 0x2f, 0x66, 0x6c, 0x61,
  0x74, 0x74, 0x65, 0x6e, 0x5f, 0x46, 0x6c, 0x61, 0x74, 0x74, 0x65, 0x6e,
  0x31, 0x2f, 0x52, 0x65, 0x73, 0x68, 0x61, 0x70, 0x65, 0x00, 0x00, 0x00,
  0x02, 0x00, 0x00, 0x00, 0x01, 0x00, 0x00, 0x00, 0x19, 0x00, 0x00, 0x00,
  0x0e, 0xff, 0xff, 0xff, 0x00, 0x00, 0x00, 0x01, 0x10, 0x00, 0x00, 0x00,
  0x10, 0x00, 0x00, 0x00, 0x06, 0x00, 0x00, 0x00, 0x30, 0x00, 0x00, 0x00,
  0x14, 0xfe, 0xff, 0xff, 0x20, 0x00, 0x00, 0x00, 0x73, 0x65, 0x71, 0x75,
  0x65, 0x6e, 0x74, 0x69, 0x61, 0x6c, 0x5f, 0x31, 0x2f, 0x64, 0x65, 0x6e,
  0x73, 0x65, 0x5f, 0x44, 0x65, 0x6e, 0x73, 0x65, 0x34, 0x2f, 0x4d, 0x61,
  0x74, 0x4d, 0x75, 0x6c, 0x00, 0x00, 0x00, 0x00, 0x02, 0x00, 0x00, 0x00,
  0x02, 0x00, 0x00, 0x00, 0x1e, 0x00, 0x00, 0x00, 0x5e, 0xff, 0xff, 0xff,
  0x00, 0x00, 0x00, 0x01, 0x10, 0x00, 0x00, 0x00, 0x10, 0x00, 0x00, 0x00,
  0x05, 0x00, 0x00, 0x00, 0x30, 0x00, 0x00, 0x00, 0x64, 0xfe, 0xff, 0xff,
  0x20, 0x00, 0x00, 0x00, 0x73, 0x65, 0x71, 0x75, 0x65, 0x6e, 0x74, 0x69,
  0x61, 0x6c, 0x5f, 0x31, 0x2f, 0x64, 0x65, 0x6e, 0x73, 0x65, 0x5f, 0x44,
  0x65, 0x6e, 0x73, 0x65, 0x33, 0x2f, 0x4d, 0x61, 0x74, 0x4d, 0x75, 0x6c,
  0x00, 0x00, 0x00, 0x00, 0x02, 0x00, 0x00, 0x00, 0x1e, 0x00, 0x00, 0x00,
  0x14, 0x00, 0x00, 0x00, 0xae, 0xff, 0xff, 0xff, 0x00, 0x00, 0x00, 0x01,
  0x10, 0x00, 0x00, 0x00, 0x10, 0x00, 0x00, 0x00, 0x04, 0x00, 0x00, 0x00,
  0x30, 0x00, 0x00, 0x00, 0xb4, 0xfe, 0xff, 0xff, 0x20, 0x00, 0x00, 0x00,
  0x73, 0x65, 0x71, 0x75, 0x65, 0x6e, 0x74, 0x69, 0x61, 0x6c, 0x5f, 0x31,
  0x2f, 0x64, 0x65, 0x6e, 0x73, 0x65, 0x5f, 0x44, 0x65, 0x6e, 0x73, 0x65,
  0x32, 0x2f, 0x4d, 0x61, 0x74, 0x4d, 0x75, 0x6c, 0x00, 0x00, 0x00, 0x00,
  0x02, 0x00, 0x00, 0x00, 0x14, 0x00, 0x00, 0x00, 0x08, 0x00, 0x00, 0x00,
  0x00, 0x00, 0x16, 0x00, 0x18, 0x00, 0x14, 0x00, 0x00, 0x00, 0x10, 0x00,
  0x0c, 0x00, 0x08, 0x00, 0x00, 0x00, 0x00, 0x00, 0x00, 0x00, 0x07, 0x00,
  0x16, 0x00, 0x00, 0x00, 0x00, 0x00, 0x00, 0x01, 0x10, 0x00, 0x00, 0x00,
  0x10, 0x00, 0x00, 0x00, 0x03, 0x00, 0x00, 0x00, 0x30, 0x00, 0x00, 0x00,
  0x1c, 0xff, 0xff, 0xff, 0x21, 0x00, 0x00, 0x00, 0x73, 0x65, 0x71, 0x75,
  0x65, 0x6e, 0x74, 0x69, 0x61, 0x6c, 0x5f, 0x31, 0x2f, 0x64, 0x65, 0x6e,
  0x73, 0x65, 0x5f, 0x44, 0x65, 0x6e, 0x73, 0x65, 0x31, 0x2f, 0x4d, 0x61,
  0x74, 0x4d, 0x75, 0x6c, 0x31, 0x00, 0x00, 0x00, 0x02, 0x00, 0x00, 0x00,
  0x08, 0x00, 0x00, 0x00, 0x19, 0x00, 0x00, 0x00, 0x00, 0x00, 0x16, 0x00,
  0x1c, 0x00, 0x18, 0x00, 0x17, 0x00, 0x10, 0x00, 0x0c, 0x00, 0x08, 0x00,
  0x00, 0x00, 0x00, 0x00, 0x00, 0x00, 0x07, 0x00, 0x16, 0x00, 0x00, 0x00,
  0x00, 0x00, 0x00, 0x01, 0x14, 0x00, 0x00, 0x00, 0x14, 0x00, 0x00, 0x00,
  0x02, 0x00, 0x00, 0x00, 0x00, 0x00, 0x00, 0x02, 0x30, 0x00, 0x00, 0x00,
  0x88, 0xff, 0xff, 0xff, 0x23, 0x00, 0x00, 0x00, 0x73, 0x65, 0x71, 0x75,
  0x65, 0x6e, 0x74, 0x69, 0x61, 0x6c, 0x5f, 0x31, 0x2f, 0x66, 0x6c, 0x61,
  0x74, 0x74, 0x65, 0x6e, 0x5f, 0x46, 0x6c, 0x61, 0x74, 0x74, 0x65, 0x6e,
  0x31, 0x2f, 0x43, 0x6f, 0x6e, 0x73, 0x74, 0x00, 0x01, 0x00, 0x00, 0x00,
  0x02, 0x00, 0x00, 0x00, 0x00, 0x00, 0x16, 0x00, 0x1c, 0x00, 0x18, 0x00,
  0x00, 0x00, 0x14, 0x00, 0x10, 0x00, 0x0c, 0x00, 0x00, 0x00, 0x00, 0x00,
  0x08, 0x00, 0x07, 0x00, 0x16, 0x00, 0x00, 0x00, 0x00, 0x00, 0x00, 0x01,
  0x14, 0x00, 0x00, 0x00, 0x24, 0x00, 0x00, 0x00, 0x24, 0x00, 0x00, 0x00,
  0x01, 0x00, 0x00, 0x00, 0x4c, 0x00, 0x00, 0x00, 0x03, 0x00, 0x00, 0x00,
  0xff, 0xff, 0xff, 0xff, 0x19, 0x00, 0x00, 0x00, 0x01, 0x00, 0x00, 0x00,
  0x04, 0x00, 0x04, 0x00, 0x04, 0x00, 0x00, 0x00, 0x28, 0x00, 0x00, 0x00,
  0x73, 0x65, 0x72, 0x76, 0x69, 0x6e, 0x67, 0x5f, 0x64, 0x65, 0x66, 0x61,
  0x75, 0x6c, 0x74, 0x5f, 0x66, 0x6c, 0x61, 0x74, 0x74, 0x65, 0x6e, 0x5f,
  0x46, 0x6c, 0x61, 0x74, 0x74, 0x65, 0x6e, 0x31, 0x5f, 0x69, 0x6e, 0x70,
  0x75, 0x74, 0x3a, 0x30, 0x00, 0x00, 0x00, 0x00, 0x03, 0x00, 0x00, 0x00,
  0x01, 0x00, 0x00, 0x00, 0x19, 0x00, 0x00, 0x00, 0x01, 0x00, 0x00, 0x00,
  0x03, 0x00, 0x00, 0x00, 0x30, 0x00, 0x00, 0x00, 0x14, 0x00, 0x00, 0x00,
  0x04, 0x00, 0x00, 0x00, 0xe8, 0xff, 0xff, 0xff, 0x19, 0x00, 0x00, 0x00,
  0x00, 0x00, 0x00, 0x19, 0xf4, 0xff, 0xff, 0xff, 0x09, 0x00, 0x00, 0x00,
  0x00, 0x00, 0x00, 0x09, 0x0c, 0x00, 0x0c, 0x00, 0x0b, 0x00, 0x00, 0x00,
  0x00, 0x00, 0x04, 0x00, 0x0c, 0x00, 0x00, 0x00, 0x16, 0x00, 0x00, 0x00,
  0x00, 0x00, 0x00, 0x16
};
unsigned int model_tflite_len = 6520;
